di 55861
a 55449
e 49253
che 46631
i 33579
o 28051
la 27818
un 26202
è 25705
il 24411
in 23615
are 19334
per 18863
una 17171
i@@ 16747
s@@ 16386
non 15340
le 15005
o, 14965
ri@@ 14874
a, 14607
a. 14551
o. 13970
t@@ 13947
ato 13919
si 13854
in@@ 13764
e, 13650
E 13326
ar@@ 12968
di@@ 12376
e. 12294
d@@ 12098
e@@ 11996
, 11652
. 11581
l'@@ 11472
to 11254
da 11250
er@@ 10965
o@@ 10738
sono 10557
i, 9831
or@@ 9802
b@@ 9669
del 9410
st@@ 9368
c@@ 9318
pi@@ 9073
g@@ 9059
ci@@ 9057
come 8984
av@@ 8919
at@@ 8898
con 8807
m@@ 8799
f@@ 8794
ano 8781
S@@ 8720
v@@ 8675
i. 8636
u@@ 8609
r@@ 8454
p@@ 8449
a@@ 8443
vi@@ 8392
es@@ 8368
an@@ 8295
n@@ 8205
se 8184
l@@ 8143
più 7984
questo 7955
ci 7914
re@@ 7842
on@@ 7517
della 7466
"@@ 7433
con@@ 7347
al@@ 7323
ma 7208
ic@@ 7145
gi@@ 7135
qu@@ 6937
en@@ 6877
C@@ 6869
mi 6863
ere 6816
it@@ 6750
lo 6734
am@@ 6732
so 6675
pro@@ 6441
de@@ 6435
D@@ 6423
si@@ 6157
ha 6111
amo 6083
et@@ 5967
as@@ 5965
chi@@ 5950
al 5921
ale 5787
ol@@ 5744
nel 5697
li@@ 5689
co@@ 5669
P@@ 5649
per@@ 5590
re 5450
gli 5410
im@@ 5354
ti 5307
à 5284
ent@@ 5204
bi@@ 5177
era 5169
: 5137
par@@ 5123
-- 5076
ate 4992
M@@ 4924
pre@@ 4829
A@@ 4827
po@@ 4825
ti@@ 4789
est@@ 4721
Ma 4714
su@@ 4714
ho 4709
ando 4660
questa 4658
us@@ 4626
ro@@ 4618
cosa 4613
molto 4592
dei 4565
ica 4509
os@@ 4506
sc@@ 4497
amente 4483
ità 4470
'@@ 4447
mo@@ 4432
delle 4405
un@@ 4395
ono 4386
do 4372
vi 4350
em@@ 4280
N@@ 4279
col@@ 4223
ett@@ 4188
com@@ 4169
zz@@ 4166
zione 4134
ore 4117
ati 4110
ter@@ 4099
att@@ 4090
alla 4088
ut@@ 4076
abbiamo 4051
ra@@ 4023
E@@ 4014
vol@@ 4013
cui 3999
Non 3977
ap@@ 3947
essere 3937
azione 3921
? 3900
ata 3887
ver@@ 3858
fi@@ 3846
man@@ 3812
B@@ 3807
el@@ 3799
li 3782
G@@ 3756
te 3756
sol@@ 3751
anche 3706
cor@@ 3667
mi@@ 3655
ess@@ 3618
mo 3596
ag@@ 3596
uno 3572
quando 3555
La 3524
se@@ 3489
T@@ 3472
dell'@@ 3463
loro 3438
ad 3435
perché 3434
og@@ 3423
ai 3421
pot@@ 3421
z@@ 3415
no@@ 3403
ne 3329
cre@@ 3287
hanno 3269
V@@ 3265
fare 3262
do@@ 3261
Il 3241
ec@@ 3240
sta 3229
ric@@ 3226
O@@ 3220
solo 3214
ch@@ 3207
ot@@ 3202
L@@ 3181
su 3170
h@@ 3115
for@@ 3098
persone 3096
ac@@ 3077
ò 3060
tu@@ 3053
io 3045
anno 3045
tutto 3036
ente 3033
un'@@ 3018
ant@@ 3011
va 3009
far@@ 3009
and@@ 3003
ment@@ 3000
1@@ 2997
quello 2995
ma@@ 2970
met@@ 2969
enza 2956
inter@@ 2943
cos@@ 2933
R@@ 2915
così 2912
ell@@ 2901
endo 2896
ra 2892
ad@@ 2883
ven@@ 2869
all@@ 2867
ori@@ 2865
is@@ 2861
tutti 2815
F@@ 2798
ori 2785
port@@ 2782
min@@ 2773
nella 2759
pe@@ 2758
ed 2734
sia 2727
zi@@ 2723
H@@ 2723
sp@@ 2718
de 2702
modo 2700
ali 2653
ll@@ 2635
ev@@ 2603
anni 2599
ur@@ 2598
ete 2564
dic@@ 2564
om@@ 2564
siamo 2563
♫ 2556
enti 2547
ciò 2544
cont@@ 2531
ante 2519
Questo 2517
queste 2486
cer@@ 2485
der@@ 2470
cose 2465
ta 2464
ico 2460
fatto 2450
ora 2445
dov@@ 2441
questi 2433
tr@@ 2404
ari@@ 2396
car@@ 2393
all'@@ 2392
me 2389
E' 2372
ov@@ 2370
ist@@ 2350
fin@@ 2343
pen@@ 2336
dis@@ 2333
ni@@ 2327
no 2319
oc@@ 2318
rit@@ 2315
stato 2291
' 2288
mio 2279
- 2279
pri@@ 2278
fer@@ 2259
str@@ 2245
ogni 2242
Qu@@ 2241
gra@@ 2221
ve@@ 2211
te@@ 2201
I@@ 2201
ament@@ 2191
ca@@ 2190
esso 2189
gu@@ 2184
sione 2177
le@@ 2168
parte 2154
alt@@ 2152
... 2151
due 2133
er 2125
sa@@ 2124
mia 2122
chi 2117
cent@@ 2112
ale. 2096
ed@@ 2094
ro 2094
eg@@ 2091
-@@ 2086
ino 2079
" 2069
ve 2067
bu@@ 2064
mondo 2063
int@@ 2029
pens@@ 2029
person@@ 2029
cas@@ 2021
to@@ 2021
lo@@ 2019
alle 2015
sci@@ 2015
sto 2013
succ@@ 2008
quest@@ 2003
gli@@ 2000
prima 1999
anti 1996
mer@@ 1992
tiv@@ 1990
lu@@ 1987
c'è 1982
é 1965
Quindi 1964
dove 1959
tt@@ 1948
può 1935
ser@@ 1931
zion@@ 1928
ing@@ 1925
oi 1924
dal 1921
mon@@ 1917
ati@@ 1908
sap@@ 1883
pr@@ 1881
inizi@@ 1880
pa@@ 1878
chiam@@ 1871
acc@@ 1869
sul 1869
ul@@ 1850
poi 1849
gen@@ 1837
cambi@@ 1833
In 1833
ass@@ 1831
ello 1830
me@@ 1826
fic@@ 1826
lavor@@ 1826
qualcosa 1822
fac@@ 1800
ero 1789
k@@ 1786
ine 1785
ina 1783
." 1781
end@@ 1778
gn@@ 1769
sion@@ 1766
ari 1764
pos@@ 1756
ento 1753
ava 1748
ast@@ 1744
mostr@@ 1743
tra 1741
almente 1737
sulla 1736
noi 1731
migli@@ 1725
enz@@ 1722
ale, 1719
zioni 1719
Se 1706
iamo 1704
trov@@ 1695
vit@@ 1694
tre 1687
are. 1678
sco@@ 1675
degli 1668
ne@@ 1667
ten@@ 1660
". 1656
uc@@ 1656
br@@ 1649
L'@@ 1635
qui 1629
abi@@ 1620
co 1614
gior@@ 1613
mai 1611
uto 1607
picco@@ 1604
aggi@@ 1604
tem@@ 1604
2@@ 1602
o? 1592
ire 1591
rag@@ 1589
quel 1587
etto 1585
ato. 1580
vedere 1580
can@@ 1573
cu@@ 1573
Questa 1571
cam@@ 1564
so@@ 1563
quella 1563
sa 1560
diamo 1560
ris@@ 1558
qual@@ 1557
davvero 1543
peri@@ 1542
re, 1540
vo 1539
comun@@ 1526
U@@ 1524
po 1521
ai@@ 1511
por@@ 1509
divent@@ 1507
anz@@ 1507
eff@@ 1505
diver@@ 1505
co. 1504
fon@@ 1500
co, 1497
vita 1491
y@@ 1491
meno 1485
aff@@ 1476
gh@@ 1476
amento 1474
dalla 1465
costru@@ 1464
du@@ 1463
ancora 1452
ato, 1450
facci@@ 1447
anti@@ 1445
pres@@ 1443
sen@@ 1443
mor@@ 1441
do. 1437
ab@@ 1428
ion@@ 1428
etti@@ 1426
pol@@ 1426
post@@ 1424
do, 1423
K@@ 1423
semplic@@ 1420
È 1418
possiamo 1415
uman@@ 1413
suo 1413
nostro 1412
stra@@ 1403
ff@@ 1399
altro 1392
fa 1391
l 1389
quanto 1389
op@@ 1387
grande 1385
sor@@ 1385
parl@@ 1385
.@@ 1381
azioni 1381
tro@@ 1375
possibi@@ 1375
ini 1370
dur@@ 1367
il@@ 1363
W@@ 1356
tras@@ 1355
pu@@ 1349
ici 1348
are, 1346
avev@@ 1336
sua 1334
ole 1333
ca 1325
5@@ 1321
alizz@@ 1317
d'@@ 1313
gente 1313
eva 1312
sempre 1309
Sono 1308
tut@@ 1300
Per 1299
coll@@ 1292
Ho 1291
one 1287
nostra 1286
au@@ 1278
I 1275
Ed 1273
ici@@ 1271
erano 1270
no. 1269
ce 1268
guar@@ 1265
acqu@@ 1260
Ci 1259
ben@@ 1256
no, 1256
dent@@ 1254
ide@@ 1253
mat@@ 1252
e? 1251
pass@@ 1245
ia 1244
comp@@ 1242
nell'@@ 1236
dire 1236
vostr@@ 1234
rac@@ 1232
A 1229
In@@ 1228
to, 1226
ved@@ 1225
tutte 1224
igli@@ 1222
guard@@ 1222
interess@@ 1218
asi 1218
acci@@ 1217
ra, 1213
pp@@ 1210
ber@@ 1210
ra. 1205
h, 1204
e' 1202
sull@@ 1194
pren@@ 1191
rei 1189
tipo 1189
tempo 1187
avere 1187
t 1184
arriv@@ 1179
gia 1179
secon@@ 1178
ssi@@ 1176
mol@@ 1175
na 1171
qualche 1170
don@@ 1170
ene 1170
St@@ 1169
spi@@ 1168
Si 1162
essi@@ 1159
sot@@ 1159
problem@@ 1156
nei 1153
olo 1153
pi 1152
azion@@ 1148
senza 1147
pl@@ 1147
tor@@ 1146
le. 1145
prov@@ 1142
sal@@ 1139
doman@@ 1139
ito 1134
4@@ 1134
ola 1134
circa 1133
dere 1133
on 1132
proprio 1132
Perché 1130
funzion@@ 1129
idea 1126
nuov@@ 1124
dopo 1124
Abbiamo 1122
fu@@ 1122
are@@ 1119
mett@@ 1119
cominci@@ 1119
J@@ 1116
nu@@ 1114
vo@@ 1113
cin@@ 1113
esempi@@ 1109
voi 1105
quell@@ 1105
bas@@ 1105
aggio 1104
quindi 1102
contr@@ 1097
?" 1093
inv@@ 1093
3@@ 1091
aut@@ 1087
gener@@ 1084
sic@@ 1083
cit@@ 1082
ulti@@ 1081
ir@@ 1081
e: 1078
altra 1077
possono 1074
n 1074
ali@@ 1073
ren@@ 1072
stata 1068
esse 1068
ragazz@@ 1068
o: 1067
import@@ 1067
volta 1066
Le 1066
uti@@ 1065
à, 1062
gi 1061
ru@@ 1060
esi 1059
punto 1059
! 1058
diff@@ 1056
go 1055
verso 1054
An@@ 1054
0@@ 1054
lun@@ 1051
Come 1050
altri 1045
serv@@ 1045
cerc@@ 1044
evo 1039
ì 1039
nelle 1039
avo 1036
mar@@ 1035
po' 1035
atti@@ 1033
avano 1031
zzo 1027
rest@@ 1026
à. 1025
asp@@ 1025
5 1024
ei 1023
ener@@ 1022
'è 1022
present@@ 1019
enzi@@ 1013
emente 1011
Per@@ 1010
tratt@@ 1010
TED 1004
agli@@ 1002
molti 1002
stru@@ 1000
iti 998
ì, 994
gg@@ 994
po, 993
8@@ 991
fatt@@ 987
cell@@ 986
ita 984
senti@@ 981
che, 981
fil@@ 979
gono 979
Quando 978
Ora, 975
y 974
stesso 972
è@@ 972
essi 970
amente, 968
uti 968
rebbe 965
ig@@ 964
ro. 962
fam@@ 961
Un 961
el 959
cal@@ 956
sop@@ 955
Mi 954
pag@@ 954
storia 951
ness@@ 949
deci@@ 949
bile 949
gr@@ 945
sembr@@ 945
anza 944
ran@@ 944
sistema 942
a? 941
perch@@ 938
dall'@@ 937
segu@@ 936
All@@ 936
cost@@ 935
bisogno 934
reg@@ 934
svilu@@ 933
6@@ 933
indi@@ 933
u 933
altre 932
mal@@ 932
dire@@ 931
uom@@ 928
zza 927
bell@@ 926
proc@@ 926
negli 924
nostri 923
w@@ 922
etti 921
ite 916
Quest@@ 914
natur@@ 913
potete 912
re. 912
c'@@ 911
to. 909
viv@@ 909
vic@@ 908
be@@ 908
remmo 906
get@@ 899
Così 898
9@@ 897
citt@@ 897
arti@@ 894
edi@@ 892
fat@@ 891
ambi@@ 889
viene 889
s 888
ani 887
Grazi@@ 886
test@@ 886
lit@@ 886
voglio 884
Ch@@ 883
eri@@ 883
mus@@ 883
Cos@@ 881
or 881
and 880
medi@@ 880
agli 880
; 880
ente. 879
ese 877
maggi@@ 877
Ecco 877
fuori 874
ano. 874
rat@@ 874
Pen@@ 872
zione. 872
dot@@ 871
stiamo 869
sost@@ 869
evol@@ 868
pubbl@@ 866
mu@@ 864
econom@@ 863
parti@@ 863
id@@ 863
an 863
ro, 862
stanno 862
ica, 857
’@@ 857
proget@@ 854
abbi@@ 853
Quindi, 853
d 852
unque 851
rius@@ 850
po. 850
ica. 849
andare 848
7@@ 848
lasci@@ 847
cono 845
lin@@ 845
lo. 843
bamb@@ 843
ere@@ 841
differ@@ 840
posto 839
continu@@ 838
fino 838
aveva 836
dete 836
uro@@ 836
alcuni 835
grup@@ 834
Tut@@ 833
ario 833
numer@@ 832
sarebbe 832
visto 831
mentre 830
quale 829
fosse 827
macch@@ 826
mento 825
ante. 824
lavoro 824
ete, 823
scri@@ 823
val@@ 822
colo@@ 821
son@@ 821
fu 821
pun@@ 820
vu@@ 819
tura 818
ti, 816
stori@@ 814
sper@@ 814
anim@@ 813
ità. 813
Be@@ 813
Una 810
stri@@ 810
milioni 809
immagin@@ 807
tra@@ 807
spazi@@ 807
cat@@ 806
0 806
dello 805
gioc@@ 805
19@@ 799
lmente 796
fine 796
ede 795
plic@@ 794
penso 792
sioni 790
strut@@ 790
cerv@@ 790
vogli@@ 789
immag@@ 786
ali. 786
problema 785
atter@@ 783
pes@@ 783
inf@@ 782
legg@@ 782
avete 781
creare 780
ano, 780
insegn@@ 778
spon@@ 777
ione 776
scu@@ 776
super@@ 776
impar@@ 775
ece 773
fo@@ 773
00 773
azione. 771
ron@@ 770
sei 767
so, 766
quelle 766
mente 762
if@@ 761
aiut@@ 760
insiem@@ 760
ill@@ 758
disc@@ 758
primo 758
itu@@ 757
pas@@ 757
uro 756
ich@@ 755
prob@@ 753
mondo. 753
atto 752
glio 747
anni. 746
li. 745
già 744
ricer@@ 744
gre@@ 742
eri 741
capi@@ 741
a: 740
nost@@ 739
tanto 739
det@@ 739
ace 738
specie 738
m 738
conosc@@ 737
molte 736
ppo 735
sim@@ 735
dav@@ 733
credo 732
ali, 732
rap@@ 731
gett@@ 730
evano 729
Pot@@ 727
segn@@ 726
studi@@ 726
ri 725
soci@@ 724
bambini 723
anni, 723
Talk 722
rebbero 722
fut@@ 721
chio 720
Lo 719
que 719
zione, 718
ob@@ 718
si. 718
fond@@ 718
detto 716
si, 716
volte 716
realtà 716
nell@@ 715
ta@@ 714
dice 714
sar@@ 713
pianet@@ 713
termin@@ 713
Al@@ 712
ang@@ 711
emo 710
Subtitles 708
Transcript: 708
miei 705
k 705
nuovo 704
ti. 701
parlare 700
tecnolo@@ 700
capire 699
bar@@ 699
forse 697
arsi 697
le, 696
attraverso 696
propri@@ 696
tutta 695
sero 695
qualcuno 695
cresc@@ 692
ò@@ 691
é@@ 690
azione, 690
ì. 690
Ora 689
ura 689
form@@ 688
inc@@ 688
sign@@ 686
Vogli@@ 686
ù@@ 686
vor@@ 686
prendere 685
vent@@ 685
velo@@ 685
ni 684
bo@@ 684
iment@@ 683
potrebbe 683
sarà 682
ce@@ 681
occu@@ 680
giorno 679
incredi@@ 677
colo 676
esist@@ 676
speci@@ 676
mag@@ 675
pensare 675
ità, 675
", 674
stessa 674
rete 673
acca@@ 673
dai 672
dobbiamo 670
avuto 669
attr@@ 669
momento 668
giun@@ 666
bbe 665
lui 663
ani@@ 662
allo 662
leg@@ 660
ore, 660
ord@@ 660
entr@@ 657
veramente 656
divers@@ 656
ma, 655
ore. 655
dit@@ 655
ata. 655
da@@ 654
stati 654
complet@@ 653
amo, 652
som@@ 652
pic@@ 651
alcune 650
grandi 650
fel@@ 649
ini@@ 647
Io 646
dati 645
Di@@ 644
sist@@ 642
ativ@@ 641
sce 641
piac@@ 640
importante 640
atu@@ 639
forma 638
posi@@ 638
fre@@ 636
pet@@ 636
ati. 636
Che 635
informa@@ 635
tecnologia 634
luc@@ 634
siano 633
stu@@ 632
giust@@ 632
ram@@ 631
enti@@ 630
ggi@@ 630
quali 628
anzi@@ 625
abbastanza 625
gio@@ 625
uzione 623
.000 623
% 623
erò 622
via 622
fanno 622
etro 621
miliar@@ 620
Ben@@ 619
enze 619
divi@@ 618
10 618
materi@@ 615
gran@@ 615
ades@@ 614
rel@@ 614
liv@@ 613
ove 612
za 612
te. 611
so. 611
controll@@ 607
2 607
uni@@ 607
sch@@ 605
azz@@ 604
iti@@ 604
ingu@@ 603
vere 600
den@@ 598
libr@@ 598
lav@@ 597
dev@@ 594
fici@@ 590
not@@ 589
org@@ 589
part@@ 582
oper@@ 580
dist@@ 580
princi@@ 576
ate, 575
h 573
far 572
fron@@ 571
go@@ 565
compl@@ 565
sult@@ 565
program@@ 564
cap@@ 563
atur@@ 563
conc@@ 563
cul@@ 559
alc@@ 558
olo@@ 558
prend@@ 557
de. 557
vide@@ 555
nor@@ 553
sistem@@ 553
seri@@ 550
organi@@ 548
dell@@ 547
tri@@ 545
lan@@ 545
doll@@ 544
cir@@ 543
capac@@ 543
amb@@ 543
Indi@@ 540
san@@ 539
ordin@@ 537
pan@@ 536
bb@@ 536
sem@@ 536
ù 534
50 530
dimen@@ 529
abb@@ 528
fant@@ 527
tele@@ 527
caus@@ 525
k, 524
intell@@ 524
ere, 522
men@@ 519
amp@@ 518
Un@@ 518
fos@@ 518
abor@@ 518
let@@ 517
fl@@ 517
Com@@ 514
vero 513
enor@@ 512
r 510
vir@@ 510
scal@@ 505
qui@@ 505
cur@@ 500
consider@@ 496
glob@@ 495
Su@@ 495
Mar@@ 494
societ@@ 493
ate. 492
tal@@ 492
Con@@ 491
state 490
lim@@ 488
20 488
dar@@ 485
ator@@ 485
ost@@ 484
se, 483
x@@ 482
signific@@ 480
oni 480
bre@@ 479
ere. 478
abilit@@ 478
200@@ 476
de, 474
No@@ 474
Pro@@ 473
fort@@ 472
otogra@@ 468
ban@@ 467
polit@@ 465
pover@@ 464
bri@@ 462
necess@@ 462
y, 459
defin@@ 459
med@@ 459
ner@@ 458
..@@ 457
computer 457
3 455
"S@@ 454
inci@@ 454
me, 451
4 448
ché 447
oro 441
ogli@@ 440
indu@@ 440
dat@@ 435
simi@@ 433
is 432
mem@@ 432
um@@ 431
osc@@ 430
positi@@ 429
question@@ 429
s, 428
azi@@ 428
pai@@ 427
cc@@ 427
oce@@ 425
cli@@ 423
imp@@ 421
hi@@ 418
,@@ 416
8 413
capit@@ 412
des@@ 412
desi@@ 412
visi@@ 412
las@@ 412
fe@@ 411
bilit@@ 410
univers@@ 406
20@@ 406
sin@@ 406
g 404
ann@@ 403
6 403
archit@@ 402
mom@@ 402
à@@ 402
mas@@ 401
ge@@ 401
er, 400
ement@@ 400
bl@@ 400
lon@@ 396
New 395
olog@@ 394
situ@@ 393
cri@@ 392
net@@ 392
mili@@ 392
TED@@ 391
vers@@ 391
sh@@ 390
app@@ 389
comput@@ 386
blo@@ 386
bisog@@ 384
sur@@ 382
innov@@ 381
fis@@ 381
prof@@ 380
cl@@ 380
0, 379
Afric@@ 378
gover@@ 376
movi@@ 376
Africa 373
bbero 373
ile 373
ute 372
off@@ 372
Ar@@ 369
er. 369
tec@@ 368
non@@ 368
k. 367
00@@ 367
vari@@ 367
aver@@ 364
dollar@@ 364
30 362
1 362
invent@@ 362
7 361
sog@@ 359
Inter@@ 357
me. 355
bot@@ 352
100 350
individu@@ 349
stud@@ 349
tur@@ 348
rem@@ 347
[@@ 346
sing@@ 346
gin@@ 345
gro@@ 345
mill@@ 344
af@@ 340
design@@ 340
sare@@ 339
us 336
Yor@@ 336
es 334
Jo@@ 330
d, 330
riv@@ 329
Ne@@ 329
j@@ 327
Ri@@ 327
opportun@@ 327
essa 326
forma@@ 326
design 326
p 324
biamo 323
ice 322
en 320
solut@@ 319
perf@@ 319
mic@@ 319
ou@@ 319
“@@ 316
spe@@ 316
ard 315
Americ@@ 311
th@@ 311
tot@@ 308
tim@@ 308
reli@@ 308
ge 307
mis@@ 307
O 307
A: 302
o-@@ 302
s. 298
!@@ 297
Z@@ 297
la@@ 295
tit@@ 295
d. 294
est 293
fun@@ 291
we@@ 290
ing 290
realt@@ 287
respon@@ 284
b 284
y. 284
Unit@@ 281
anto 280
] 279
e." 279
ancor@@ 278
ust@@ 277
ific@@ 272
sit@@ 271
Ma@@ 268
ros@@ 267
ì@@ 267
ele@@ 266
9 266
be 266
bor@@ 263
stor@@ 261
into 260
ture 259
razi@@ 256
gl@@ 253
pul@@ 252
000 249
pian@@ 245
gir@@ 244
oo@@ 244
as 243
lar@@ 243
mac@@ 241
ase 241
ow@@ 241
– 241
gam@@ 239
rec@@ 237
ar 236
OK@@ 235
ogra@@ 233
tic@@ 232
am 231
pub@@ 230
ak@@ 228
son 227
del@@ 227
stre@@ 225
ave 224
Go@@ 223
x 222
one. 222
der 222
ose 219
one, 218
Y@@ 217
az@@ 216
an, 214
sup@@ 214
lev@@ 214
Amer@@ 212
star@@ 212
?@@ 209
attraver@@ 209
perc@@ 208
sm@@ 206
X@@ 202
ki@@ 201
over@@ 200
esem@@ 199
produc@@ 198
man 196
ame 195
spen@@ 195
En@@ 195
partic@@ 194
natu@@ 194
duc@@ 193
qualc@@ 190
econ@@ 189
” 185
”@@ 184
on, 183
he@@ 183
tw@@ 181
%@@ 181
ste@@ 179
ative 178
Th@@ 176
indi, 175
ue 174
c 172
fa@@ 170
govern@@ 170
ze 170
f 167
tell@@ 166
bra@@ 165
possi@@ 164
lat@@ 164
sub@@ 162
bac@@ 162
ex@@ 162
S 160
se. 160
id 159
sum@@ 158
inst@@ 156
busin@@ 155
ess 155
anc@@ 155
up@@ 154
bero 152
nam@@ 151
ph@@ 150
et 149
our@@ 149
contro@@ 148
contin@@ 145
pe 144
m, 143
D 143
ill 142
V 142
C 140
dd@@ 139
sul@@ 139
ey 139
♫@@ 139
ba@@ 137
ear@@ 136
more 136
consi@@ 134
plan@@ 133
in, 130
ry 129
z 129
time 128
muc@@ 127
educ@@ 127
e-@@ 126
dro@@ 125
bro@@ 124
tre@@ 124
es, 122
ing, 121
ach@@ 121
," 120
ep@@ 118
/@@ 117
at 116
of 112
comm@@ 111
har@@ 110
t. 109
enc@@ 106
her@@ 104
it 104
spec@@ 103
es. 100
our 100
ong 100
t, 99
kin@@ 98
sel@@ 97
on. 95
um 94
les 94
mark@@ 93
wa@@ 93
oun@@ 93
X 92
wi@@ 92
ey@@ 91
T 91
wit@@ 91
q@@ 91
’ 90
So 89
th 89
elec@@ 89
all 88
ea@@ 88
:@@ 88
ational 88
inform@@ 88
ers 87
us. 87
ure 86
lob@@ 86
auti@@ 86
ing. 85
ity 85
The 85
Af@@ 84
ke 84
ir 83
gram@@ 83
We@@ 82
war@@ 82
om 82
eve 82
cco 81
ter 80
get 80
pre 80
L 80
use 79
ei@@ 79
nov@@ 78
's 77
abbast@@ 76
en, 76
incre@@ 76
Wh@@ 75
shi@@ 75
w, 74
of@@ 73
us, 73
nolo@@ 72
ood 72
fir@@ 70
ick@@ 70
Q@@ 69
the 69
]@@ 68
tive 67
ation 67
altr@@ 67
in. 67
age 66
ll 66
ke@@ 65
ack 65
dre@@ 64
Ear@@ 64
arch@@ 64
fri@@ 63
v 63
It@@ 61
° 59
G 59
sk@@ 58
ch 57
ld 57
,000 57
work 57
ever@@ 56
ú 56
ther@@ 55
ance 55
pla@@ 55
cause 54
P 52
ain@@ 52
You@@ 52
by 51
ef@@ 50
ion 50
chil@@ 50
ft 50
B 50
ent 50
&@@ 49
ell 49
st 49
ans 49
he 49
and, 48
ver 48
et. 47
wor@@ 47
ence 47
hu@@ 47
plac@@ 46
alcun@@ 45
w 45
than 45
od 44
und 44
wat@@ 44
even 44
bus@@ 43
eng@@ 43
K 42
Tran@@ 42
N 42
it, 42
«@@ 42
sai@@ 41
ary 41
al. 41
ans@@ 40
@@@ 40
end 40
fro@@ 40
put 40
— 40
;@@ 39
right 39
the@@ 39
gh 39
… 39
al, 39
ast 39
et, 38
low 38
R 38
th, 38
up 38
É 35
$ 35
ks 35
á 35
create 35
$@@ 34
q 34
ther 34
ds 33
low@@ 33
win@@ 33
pen 33
ic 33
talk 33
sy@@ 32
bet@@ 32
ly 32
it. 32
king 31
out@@ 31
show 31
wn 31
any@@ 30
trans@@ 30
M 30
U 30
svi@@ 30
 @@ 29
is. 29
my 28
ity, 28
lif@@ 28
lear@@ 28
ant 27
ation, 27
y? 27
ers, 26
is, 26
opl@@ 26
wn@@ 26
for 26
» 26
side 25
rou@@ 25
tog@@ 24
ves 23
them@@ 23
ch. 23
ation@@ 23
ates 22
Y 22
pt@@ 22
nec@@ 22
ó 22
ght 22
chang@@ 22
bit 22
One 21
hom@@ 21
´@@ 21
ble 21
jo@@ 21
ich 21
H 21
sion 21
ful@@ 21
air@@ 21
ory 20
tech@@ 20
ght, 20
ous@@ 20
tion 20
ity. 20
í 20
also 20
ok 20
ral 19
TE@@ 19
W 18
ts 18
) 18
back 17
work@@ 17
th. 17
ed, 16
jec@@ 16
int 16
»@@ 16
ach 16
ber 16
ght. 15
ght@@ 15
ical 15
ment 15
tion@@ 14
over 14
ion, 14
wh@@ 14
ms 14
ation. 14
her 14
á@@ 14
red 13
ed. 13
Z 13
ust 13
old 13
*@@ 13
coun@@ 13
insi@@ 13
ut 13
°@@ 12
way 12
high@@ 12
ell, 12
My 12
ank 12
ings 12
my@@ 12
hal@@ 12
any 12
under@@ 11
loo@@ 11
w. 11
Q 11
show@@ 11
ö@@ 11
vidu@@ 10
ow 10
day 10
e's 10
clo@@ 10
F 10
ye@@ 10
read@@ 10
+@@ 10
tle 10
imag@@ 10
+ 10
lot 9
J 9
(@@ 9
char@@ 9
ep 9
ally 9
hav@@ 9
/ 9
ever 9
stem@@ 9
í@@ 9
blem@@ 9
ion. 8
nex@@ 8
ound 8
ou 8
commun@@ 8
done 8
time, 8
ds, 8
now 8
life 8
vie@@ 8
ys 8
j 8
time. 8
ly, 8
we 8
ould 8
#@@ 8
mov@@ 7
ding 7
way, 7
Now 7
ful 7
=@@ 7
gy 7
ó@@ 7
down@@ 7
very 7
bill@@ 7
she 7
ous 7
ning 6
res 6
its 6
portun@@ 6
Sub@@ 6
can 6
´ 6
ys, 5
able 5
hap@@ 5
stem 5
They 5
alk 5
What 5
act 5
out 5
give 5
grand@@ 5
down 5
…@@ 5
lik@@ 5
ked 5
  4
off 4
way. 4
reas@@ 4
see 4
look 4
ions 4
‘@@ 4
We 4
It's 4
* 4
try 4
some 4
ands 4
ú@@ 4
indi 4
hel@@ 4
made 4
how 4
bod@@ 4
live 4
ely 4
kes 4
ying 4
ü@@ 4
pow@@ 4
etter 4
own 4
als 4
ñ@@ 4
call 3
ting 3
ations 3
was@@ 3
ses 3
you@@ 3
“ 3
worl@@ 3
ven 3
= 3
²@@ 3
ated 3
ç@@ 3
cour@@ 3
projec@@ 3
` 3
technolo@@ 3
love 3
big 3
call@@ 3
È@@ 3
ä@@ 3
Now, 3
This 3
want 3
your 3
can't 3
buil@@ 3
It 3
½ 2
¼ 2
not 2
got 2
€ 2
point 2
less 2
now, 2
know@@ 2
will 2
ically 2
self 2
)@@ 2
four 2
û 2
And 2
that 2
from 2
why 2
thou@@ 2
beli@@ 2
had 2
other 2
If 2
I'@@ 2
feel 2
actu@@ 2
won@@ 2
–@@ 2
if 2
@ 2
num@@ 2
gn 2
² 2
new 2
bbiamo 2
ā@@ 2
♪ 2
day, 2
've 1
part 1
system@@ 1
How 1
`@@ 1
coming 1
human 1
™ 1
world 1
thing 1
thing@@ 1
İ@@ 1
long 1
ere's 1
his 1
nostr@@ 1
® 1
don't 1
have 1
good 1
ampl@@ 1
body 1
ž@@ 1
ѐ 1
change 1
You 1
¼@@ 1
¥ 1
sort 1
struc@@ 1
which 1
â@@ 1
ê@@ 1
found 1
real 1
this 1
was 1
tty 1
© 1
just 1
throu@@ 1
self@@ 1
when 1
you, 1
happ@@ 1
These 1
with 1
kind 1
most 1
ś@@ 1
ć 1
ã@@ 1
other@@ 1
[ 1
˚ 1
£@@ 1
^@@ 1
É@@ 1
Ç@@ 1
ï@@ 1
know, 1
out. 1
‘ 1
experi@@ 1
♪@@ 1
